unsigned char sine_model_tflite[] = {
  0x1c, 0x00, 0x00, 0x00, 0x54, 0x46, 0x4c, 0x33, 0x14, 0x00, 0x20, 0x00,
  0x1c, 0x00, 0x18, 0x00, 0x14, 0x00, 0x10, 0x00, 0x0c, 0x00, 0x00, 0x00,
  0x08, 0x00, 0x04, 0x00, 0x14, 0x00, 0x00, 0x00, 0x1c, 0x00, 0x00, 0x00,
  0x90, 0x00, 0x00, 0x00, 0xe8, 0x00, 0x00, 0x00, 0x68, 0x0b, 0x00, 0x00,
  0x78, 0x0b, 0x00, 0x00, 0x9c, 0x11, 0x00, 0x00, 0x03, 0x00, 0x00, 0x00,
  0x01, 0x00, 0x00, 0x00, 0x10, 0x00, 0x00, 0x00, 0x00, 0x00, 0x0a, 0x00,
  0x10, 0x00, 0x0c, 0x00, 0x08, 0x00, 0x04, 0x00, 0x0a, 0x00, 0x00, 0x00,
  0x0c, 0x00, 0x00, 0x00, 0x1c, 0x00, 0x00, 0x00, 0x38, 0x00, 0x00, 0x00,
  0x0f, 0x00, 0x00, 0x00, 0x73, 0x65, 0x72, 0x76, 0x69, 0x6e, 0x67, 0x5f,
  0x64, 0x65, 0x66, 0x61, 0x75, 0x6c, 0x74, 0x00, 0x01, 0x00, 0x00, 0x00,
  0x04, 0x00, 0x00, 0x00, 0x98, 0xff, 0xff, 0xff, 0x0c, 0x00, 0x00, 0x00,
  0x04, 0x00, 0x00, 0x00, 0x07, 0x00, 0x00, 0x00, 0x64, 0x65, 0x6e, 0x73,
  0x65, 0x5f, 0x33, 0x00, 0x01, 0x00, 0x00, 0x00, 0x04, 0x00, 0x00, 0x00,
  0x62, 0xf5, 0xff, 0xff, 0x04, 0x00, 0x00, 0x00, 0x0b, 0x00, 0x00, 0x00,
  0x64, 0x65, 0x6e, 0x73, 0x65, 0x5f, 0x69, 0x6e, 0x70, 0x75, 0x74, 0x00,
  0x02, 0x00, 0x00, 0x00, 0x34, 0x00, 0x00, 0x00, 0x04, 0x00, 0x00, 0x00,
  0xdc, 0xff, 0xff, 0xff, 0x0f, 0x00, 0x00, 0x00, 0x04, 0x00, 0x00, 0x00,
  0x13, 0x00, 0x00, 0x00, 0x43, 0x4f, 0x4e, 0x56, 0x45, 0x52, 0x53, 0x49,
  0x4f, 0x4e, 0x5f, 0x4d, 0x45, 0x54, 0x41, 0x44, 0x41, 0x54, 0x41, 0x00,
  0x08, 0x00, 0x0c, 0x00, 0x08, 0x00, 0x04, 0x00, 0x08, 0x00, 0x00, 0x00,
  0x0e, 0x00, 0x00, 0x00, 0x04, 0x00, 0x00, 0x00, 0x13, 0x00, 0x00, 0x00,
  0x6d, 0x69, 0x6e, 0x5f, 0x72, 0x75, 0x6e, 0x74, 0x69, 0x6d, 0x65, 0x5f,
  0x76, 0x65, 0x72, 0x73, 0x69, 0x6f, 0x6e, 0x00, 0x10, 0x00, 0x00, 0x00,
  0x7c, 0x0a, 0x00, 0x00, 0x74, 0x0a, 0x00, 0x00, 0x24, 0x0a, 0x00, 0x00,
  0x08, 0x0a, 0x00, 0x00, 0xb8, 0x09, 0x00, 0x00, 0x68, 0x09, 0x00, 0x00,
  0x18, 0x09, 0x00, 0x00, 0x08, 0x05, 0x00, 0x00, 0xf8, 0x00, 0x00, 0x00,
  0xa8, 0x00, 0x00, 0x00, 0xa0, 0x00, 0x00, 0x00, 0x98, 0x00, 0x00, 0x00,
  0x90, 0x00, 0x00, 0x00, 0x88, 0x00, 0x00, 0x00, 0x68, 0x00, 0x00, 0x00,
  0x04, 0x00, 0x00, 0x00, 0x1a, 0xf6, 0xff, 0xff, 0x04, 0x00, 0x00, 0x00,
  0x54, 0x00, 0x00, 0x00, 0x0c, 0x00, 0x00, 0x00, 0x08, 0x00, 0x0e, 0x00,
  0x08, 0x00, 0x04, 0x00, 0x08, 0x00, 0x00, 0x00, 0x10, 0x00, 0x00, 0x00,
  0x24, 0x00, 0x00, 0x00, 0x00, 0x00, 0x06, 0x00, 0x08, 0x00, 0x04, 0x00,
  0x06, 0x00, 0x00, 0x00, 0x04, 0x00, 0x00, 0x00, 0x00, 0x00, 0x00, 0x00,
  0x00, 0x00, 0x0a, 0x00, 0x10, 0x00, 0x0c, 0x00, 0x08, 0x00, 0x04, 0x00,
  0x0a, 0x00, 0x00, 0x00, 0x02, 0x00, 0x00, 0x00, 0x02, 0x00, 0x00, 0x00,
  0x04, 0x00, 0x00, 0x00, 0x05, 0x00, 0x00, 0x00, 0x32, 0x2e, 0x39, 0x2e,
  0x32, 0x00, 0x00, 0x00, 0x7a, 0xf6, 0xff, 0xff, 0x04, 0x00, 0x00, 0x00,
  0x10, 0x00, 0x00, 0x00, 0x31, 0x2e, 0x35, 0x2e, 0x30, 0x00, 0x00, 0x00,
  0x00, 0x00, 0x00, 0x00, 0x00, 0x00, 0x00, 0x00, 0x38, 0xf0, 0xff, 0xff,
  0x3c, 0xf0, 0xff, 0xff, 0x40, 0xf0, 0xff, 0xff, 0x44, 0xf0, 0xff, 0xff,
  0xa6, 0xf6, 0xff, 0xff, 0x04, 0x00, 0x00, 0x00, 0x40, 0x00, 0x00, 0x00,
  0xe7, 0x7d, 0xa7, 0xbe, 0xdb, 0x72, 0x14, 0xbe, 0x45, 0xac, 0xe5, 0x3e,
  0x7c, 0xda, 0xb0, 0x3e, 0xae, 0x54, 0xcb, 0x3e, 0x85, 0x80, 0x1f, 0x3f,
  0x70, 0x4a, 0x16, 0xbf, 0x79, 0xd0, 0x11, 0xbf, 0x6a, 0x77, 0x46, 0x3f,
  0x34, 0x42, 0x0c, 0x3f, 0x14, 0x2d, 0xbd, 0xbe, 0x4f, 0xfc, 0x08, 0x3f,
  0xf5, 0x7d, 0x7f, 0x3f, 0xf5, 0xce, 0x45, 0x3f, 0x3e, 0xb8, 0x4d, 0x3f,
  0x71, 0x34, 0x46, 0x3f, 0xf2, 0xf6, 0xff, 0xff, 0x04, 0x00, 0x00, 0x00,
  0x00, 0x04, 0x00, 0x00, 0xea, 0xd4, 0x26, 0x3e, 0xcb, 0xf0, 0xfb, 0x3e,
  0x1e, 0xe0, 0x01, 0x3e, 0xc8, 0xde, 0x21, 0x3d, 0x91, 0xe5, 0x86, 0x3e,
  0x8c, 0xbe, 0xca, 0x3e, 0x82, 0xc0, 0xea, 0x3e, 0x60, 0xfe, 0xa2, 0x3d,
  0x1a, 0x61, 0x54, 0xbe, 0x27, 0xa4, 0xfa, 0x3d, 0xf2, 0xe4, 0xb1, 0xbe,
  0x9c, 0xbc, 0x9c, 0xbe, 0xac, 0x00, 0xc3, 0xbe, 0x2d, 0x81, 0xbb, 0xbe,
  0x3e, 0x1a, 0x11, 0x3e, 0x1e, 0xe2, 0x12, 0x3f, 0xb6, 0x97, 0x09, 0x3e,
  0x9e, 0x86, 0x93, 0x3e, 0x93, 0x22, 0x40, 0xbe, 0x2f, 0x3f, 0x2f, 0xbd,
  0x7b, 0xb4, 0x06, 0x3d, 0x2a, 0xeb, 0xa4, 0x3e, 0xad, 0xa8, 0x07, 0x3f,
  0x9d, 0x94, 0x26, 0x3e, 0x2d, 0xe8, 0xd7, 0xbe, 0x1a, 0x80, 0x71, 0x3d,
  0xec, 0x15, 0xc4, 0xbd, 0x43, 0x95, 0xaf, 0x3e, 0xb5, 0x85, 0x98, 0xbe,
  0x10, 0x05, 0x1b, 0x3d, 0x0c, 0x11, 0x05, 0xbf, 0x94, 0xb4, 0x3f, 0xbe,
  0x1a, 0x45, 0x52, 0x3e, 0x74, 0x77, 0x86, 0x3e, 0xf8, 0x76, 0xaa, 0x3e,
  0x5e, 0xe9, 0x6c, 0xbe, 0x58, 0x32, 0x79, 0x3d, 0xe2, 0xb4, 0x9f, 0xbc,
  0x86, 0x76, 0xc6, 0x3d, 0xaa, 0xe2, 0xf0, 0xbe, 0x4e, 0xc1, 0x1d, 0x3e,
  0x2a, 0x4b, 0x3f, 0xbc, 0x9b, 0xb2, 0xc0, 0xbe, 0x05, 0x42, 0xb7, 0x3e,
  0xc1, 0x99, 0x2f, 0xbe, 0x5e, 0x71, 0x06, 0x3e, 0x40, 0xd9, 0x10, 0xbf,
  0x1e, 0x3a, 0x52, 0xbb, 0x6e, 0x2c, 0x6e, 0x3e, 0xc8, 0xbf, 0x20, 0xbd,
  0x46, 0x47, 0x24, 0x3e, 0xca, 0x92, 0x34, 0x3e, 0xc4, 0xb4, 0xec, 0xbd,
  0x62, 0xd7, 0x2e, 0xbe, 0x98, 0x9b, 0x53, 0xbe, 0xf2, 0x13, 0xa8, 0xbe,
  0xa0, 0x83, 0x0a, 0xbe, 0xa8, 0x4b, 0x2c, 0xbd, 0xbc, 0xc2, 0xdc, 0xbe,
  0xd0, 0x1b, 0x9c, 0xbc, 0xe8, 0x6c, 0x80, 0xbe, 0x84, 0x9b, 0xea, 0x3d,
  0xd0, 0x9e, 0xe0, 0xbc, 0xc6, 0x99, 0x2c, 0x3e, 0x0a, 0x94, 0x50, 0xbe,
  0xe2, 0xea, 0x74, 0xbd, 0x99, 0x7b, 0xc3, 0xbd, 0x51, 0xf9, 0xc3, 0xbe,
  0xd0, 0xd8, 0xb8, 0xbd, 0x21, 0x0c, 0xcb, 0xbd, 0x48, 0x85, 0x94, 0x3e,
  0xa7, 0x51, 0xc7, 0xbe, 0x53, 0x5b, 0x91, 0xbe, 0x6a, 0x65, 0x0d, 0x3e,
  0x74, 0x92, 0x81, 0xbe, 0x97, 0xa5, 0xbd, 0x3e, 0x5e, 0x55, 0x34, 0x3e,
  0xa8, 0xee, 0x97, 0xbd, 0x03, 0x87, 0x3d, 0xbf, 0x6a, 0x7d, 0x5c, 0xbe,
  0xf5, 0x0c, 0x95, 0xbe, 0x54, 0x34, 0xc3, 0xbd, 0xf6, 0x92, 0x22, 0x3e,
  0xc9, 0x8f, 0xbd, 0x3d, 0x1c, 0xce, 0x4a, 0xbe, 0xdd, 0x61, 0xe2, 0x3e,
  0x58, 0xb3, 0x4a, 0xbe, 0x1b, 0x4b, 0x8b, 0xbe, 0xe8, 0x7c, 0x04, 0x3d,
  0xd9, 0xdd, 0xb2, 0xbe, 0x5a, 0x09, 0x1e, 0xbe, 0x70, 0x5b, 0x70, 0x3d,
  0x5c, 0x3b, 0xd0, 0x3e, 0xab, 0x80, 0x73, 0xbe, 0xb2, 0xe2, 0x03, 0x3f,
  0x6d, 0xd1, 0xb0, 0xbe, 0x4c, 0xc6, 0x74, 0xbe, 0xd7, 0x6b, 0x10, 0xbe,
  0x7a, 0x38, 0x1f, 0xbe, 0xad, 0x7f, 0x19, 0x3e, 0x1a, 0x06, 0x87, 0x3e,
  0x6d, 0x21, 0xb4, 0x3e, 0xfe, 0xfd, 0xb6, 0x3e, 0xaa, 0xcd, 0xcd, 0x3d,
  0x30, 0x5e, 0x53, 0xbe, 0xfa, 0xf3, 0x5c, 0xbb, 0x3c, 0x4c, 0xfc, 0xbd,
  0x88, 0xfb, 0x60, 0xbe, 0x67, 0x87, 0x70, 0xbe, 0x34, 0x5b, 0xed, 0xbd,
  0x51, 0x1d, 0xf0, 0xbd, 0xd2, 0xe4, 0xac, 0x3e, 0xd4, 0x7a, 0xf9, 0xbd,
  0x18, 0x4c, 0x68, 0xbf, 0x50, 0xdc, 0x50, 0x3e, 0x1e, 0x04, 0xd8, 0x3e,
  0x80, 0x66, 0x4c, 0xbe, 0xb8, 0x87, 0xab, 0xbe, 0xa9, 0x03, 0xa3, 0xbd,
  0xc7, 0x7b, 0xe9, 0x3e, 0x1e, 0x9a, 0x21, 0xbe, 0x98, 0x79, 0xc3, 0x3e,
  0x6e, 0x58, 0x3f, 0x3e, 0x4d, 0xb5, 0x88, 0x3e, 0x00, 0xed, 0x20, 0xbe,
  0x5d, 0xbd, 0xc8, 0xbe, 0x71, 0xa4, 0x57, 0xbe, 0xb8, 0x3e, 0x84, 0xbe,
  0xe5, 0xf1, 0x9a, 0x3e, 0x3d, 0x52, 0xb8, 0xbe, 0x11, 0x43, 0xbb, 0x3e,
  0x0c, 0xb7, 0x54, 0xbe, 0x04, 0x2a, 0xd6, 0xbd, 0x6a, 0xd8, 0x70, 0xbe,
  0x4e, 0xf5, 0x82, 0x3e, 0x62, 0x78, 0xe4, 0xbe, 0x55, 0x91, 0xab, 0x3e,
  0x08, 0x0a, 0x68, 0xbe, 0xc0, 0x1a, 0x01, 0xbe, 0x70, 0x1c, 0xc1, 0xbe,
  0x2e, 0x6a, 0x0a, 0xbd, 0x3c, 0xa1, 0xaa, 0x3d, 0x56, 0x03, 0x8c, 0x3d,
  0xa1, 0xcd, 0xcd, 0x3e, 0x49, 0x8e, 0xc0, 0x3e, 0x93, 0x9a, 0x60, 0x3d,
  0x2d, 0x64, 0x4c, 0x3e, 0x66, 0x45, 0x04, 0xbf, 0x51, 0xdf, 0x92, 0x3e,
  0xf5, 0x85, 0x30, 0xbe, 0x57, 0x93, 0xe2, 0xbc, 0xe9, 0x98, 0x6b, 0xbe,
  0x26, 0x75, 0x01, 0x3e, 0x23, 0x8d, 0x31, 0x3e, 0x54, 0x8e, 0xc5, 0x3d,
  0x5e, 0xac, 0x68, 0x3e, 0xa5, 0x32, 0x05, 0xbd, 0xa0, 0xdd, 0x15, 0xbe,
  0x83, 0xcb, 0x3d, 0xbe, 0x2b, 0xa2, 0xb7, 0x3e, 0x37, 0x83, 0xc5, 0x3e,
  0xce, 0x17, 0x9c, 0xbe, 0xdb, 0xb3, 0x92, 0x3e, 0x64, 0x2f, 0xef, 0x3d,
  0x8c, 0x23, 0xb3, 0xbe, 0x88, 0x1c, 0x28, 0xbe, 0x16, 0x82, 0xbc, 0xbe,
  0x20, 0xf4, 0xce, 0xbd, 0x2b, 0x63, 0xad, 0x3e, 0xc8, 0x64, 0x16, 0x3d,
  0xd9, 0xe2, 0x82, 0x3e, 0xb9, 0x8e, 0x48, 0xbe, 0x0c, 0xd8, 0x9d, 0x3d,
  0x1c, 0xaa, 0x3b, 0xbe, 0xbc, 0xaa, 0xb7, 0x3e, 0x50, 0xd8, 0xb7, 0x3e,
  0xda, 0x8a, 0x72, 0x3e, 0xbf, 0x21, 0xa6, 0xbe, 0x5c, 0x34, 0x27, 0x3e,
  0x83, 0xd1, 0x22, 0xbf, 0x84, 0xa1, 0x8e, 0x3d, 0x6b, 0xc6, 0xc4, 0xbd,
  0x96, 0x3b, 0xbc, 0x3e, 0x4e, 0x54, 0x89, 0xbc, 0xe2, 0xc4, 0x2d, 0x3e,
  0xa2, 0xc3, 0x85, 0x3e, 0x01, 0x36, 0x82, 0x3e, 0x0f, 0x3e, 0x43, 0xbe,
  0x3d, 0x09, 0x4d, 0xbe, 0x6d, 0xe1, 0x9c, 0x3e, 0x90, 0x28, 0x21, 0xbf,
  0x3c, 0x78, 0x98, 0x3e, 0xb4, 0x8b, 0xc4, 0xbd, 0x5c, 0x93, 0xa1, 0x3e,
  0x3e, 0xc6, 0x01, 0x3e, 0xe3, 0x0d, 0x41, 0x3d, 0xe6, 0xf8, 0xfb, 0xbd,
  0x17, 0x4e, 0xa2, 0x3e, 0xaa, 0x57, 0x6c, 0xbf, 0x73, 0x72, 0x99, 0x3e,
  0xc2, 0xe0, 0x6a, 0x3e, 0x58, 0x81, 0x2f, 0xbe, 0xa5, 0x8d, 0xc2, 0x3e,
  0xcc, 0x3e, 0xaa, 0xbe, 0x6e, 0xe3, 0x18, 0x3e, 0x16, 0x93, 0x96, 0xbe,
  0x8f, 0x9d, 0x1a, 0xbd, 0x89, 0xde, 0x6f, 0xbc, 0x72, 0x16, 0x7d, 0x3e,
  0x78, 0x40, 0xc6, 0x3e, 0xc8, 0xda, 0x0a, 0xbd, 0x6c, 0x97, 0xdd, 0xbe,
  0xdf, 0x3a, 0x60, 0x3e, 0x4d, 0x3d, 0x25, 0x3e, 0xa2, 0xb1, 0x6b, 0xbf,
  0x6a, 0xa5, 0x40, 0x3e, 0x4e, 0x16, 0xb1, 0xbe, 0xc2, 0x76, 0x9c, 0xbe,
  0x9a, 0x1d, 0xd1, 0xbe, 0xce, 0x76, 0xd9, 0xbe, 0x96, 0xc3, 0xad, 0xbe,
  0x7c, 0xd3, 0xa8, 0xbe, 0x7f, 0x90, 0x82, 0x3d, 0xd6, 0xe6, 0xde, 0xbc,
  0xa0, 0x67, 0x86, 0x3d, 0xd5, 0xb2, 0xd4, 0x3e, 0x02, 0x6b, 0xd0, 0xbe,
  0x5e, 0xc5, 0xff, 0xbe, 0x13, 0x68, 0xd3, 0x3e, 0x29, 0x7e, 0x9c, 0xbe,
  0x7f, 0x8b, 0xe5, 0x3e, 0xfd, 0xe8, 0xf5, 0xbe, 0xaa, 0x04, 0x53, 0x3e,
  0xd0, 0x7e, 0xa6, 0xbe, 0xea, 0x53, 0x09, 0x3e, 0xc0, 0x79, 0x26, 0x3d,
  0xe1, 0xa4, 0x4c, 0xbe, 0x00, 0x88, 0xc4, 0xb9, 0x7b, 0x48, 0xfd, 0xbe,
  0x99, 0x96, 0x32, 0x3e, 0x08, 0x8c, 0xed, 0xbd, 0xf4, 0xba, 0x0b, 0x3e,
  0x0c, 0xca, 0xc7, 0x3e, 0xc3, 0xd0, 0xe5, 0xbe, 0xde, 0x0b, 0x3b, 0xbe,
  0x3d, 0x96, 0xb1, 0xbe, 0x85, 0x56, 0x85, 0x3e, 0x5b, 0xe5, 0x14, 0xbf,
  0x6f, 0x5f, 0xb2, 0x3e, 0xbd, 0x8b, 0xb1, 0xbe, 0xb2, 0x10, 0x12, 0x3e,
  0xe0, 0x0a, 0xcb, 0x3c, 0x5c, 0x64, 0x5d, 0xbe, 0x98, 0xf1, 0x31, 0xbd,
  0xe0, 0xca, 0xcc, 0xbc, 0xd2, 0x39, 0xad, 0x3e, 0xfe, 0xfa, 0xff, 0xff,
  0x04, 0x00, 0x00, 0x00, 0x00, 0x04, 0x00, 0x00, 0x86, 0x60, 0x31, 0x3e,
  0x20, 0x75, 0x8a, 0x3c, 0xf2, 0xf8, 0xae, 0xbe, 0xe0, 0xc8, 0x5a, 0xbc,
  0xc0, 0x64, 0x83, 0xbe, 0x8c, 0xf2, 0xb4, 0x3d, 0xc8, 0x16, 0x4d, 0xbd,
  0xe6, 0x4b, 0x1a, 0x3e, 0xc2, 0xa7, 0x17, 0x3e, 0x5a, 0xea, 0x79, 0x3e,
  0x20, 0xfb, 0x05, 0xbe, 0xbc, 0xc2, 0xa1, 0x3d, 0x22, 0xa1, 0x29, 0x3e,
  0x6a, 0x0a, 0xa2, 0xbe, 0x23, 0x1d, 0x8a, 0x3e, 0x14, 0x53, 0xad, 0x3d,
  0xfe, 0x6f, 0x57, 0x3e, 0xf1, 0x06, 0x28, 0x3d, 0xc6, 0xd1, 0x60, 0xbe,
  0x47, 0x7c, 0xf9, 0x3d, 0x53, 0x75, 0x75, 0x3d, 0x72, 0xec, 0x88, 0xbe,
  0x13, 0x72, 0x92, 0x3e, 0x68, 0x8a, 0x57, 0x3e, 0xab, 0x3d, 0xdd, 0xbe,
  0x2e, 0x88, 0x19, 0xbe, 0x57, 0x1a, 0xa2, 0xbd, 0x40, 0x74, 0xe6, 0x3b,
  0xda, 0xcf, 0x9f, 0xbe, 0xa0, 0xc9, 0x9e, 0x3e, 0xcb, 0x4d, 0x36, 0x3e,
  0x60, 0xe4, 0x14, 0xbd, 0x2f, 0x1f, 0xb7, 0x3e, 0xc4, 0xec, 0x21, 0xbe,
  0xac, 0xe2, 0x3e, 0x3e, 0x71, 0x70, 0x9f, 0xbe, 0x94, 0x08, 0x80, 0x3d,
  0x4b, 0x4a, 0xbc, 0x3e, 0x56, 0x7e, 0xc3, 0xbe, 0x10, 0xd6, 0x35, 0xbd,
  0x17, 0x10, 0xcd, 0x3e, 0xd8, 0x62, 0x98, 0xbe, 0x00, 0x55, 0xa0, 0xbd,
  0x08, 0x22, 0x41, 0x3d, 0xe7, 0xc2, 0x9a, 0x3e, 0x21, 0xf1, 0xe6, 0xbe,
  0xc1, 0x51, 0xa2, 0x3e, 0x77, 0xad, 0xda, 0xbe, 0x00, 0xda, 0x70, 0xbc,
  0x44, 0xd0, 0xb3, 0x3e, 0xc2, 0x35, 0xf1, 0x3d, 0x13, 0xe8, 0xd6, 0xbe,
  0xc7, 0x94, 0xff, 0xbb, 0x66, 0x0b, 0xbe, 0xbe, 0x8e, 0xed, 0xd3, 0xbe,
  0xf0, 0xa9, 0xc7, 0x3d, 0x0c, 0x64, 0xf0, 0x3d, 0xe0, 0x7b, 0xa4, 0xbc,
  0x89, 0x8c, 0x6b, 0xbe, 0xb6, 0x62, 0x66, 0x3e, 0xe0, 0xad, 0x87, 0xbc,
  0xa3, 0xcd, 0x6a, 0x3d, 0x5e, 0x69, 0x39, 0x3e, 0x28, 0xe1, 0x1e, 0xbe,
  0x85, 0x35, 0xcb, 0x3e, 0xc9, 0x1f, 0xdf, 0x3d, 0xd6, 0x81, 0x39, 0xbe,
  0x33, 0x0e, 0x07, 0x3e, 0x02, 0x30, 0x63, 0x3e, 0x2b, 0x5b, 0xd6, 0x3e,
  0xc6, 0x83, 0x0f, 0x3e, 0xac, 0x89, 0xa5, 0xbe, 0x06, 0x39, 0x13, 0x3e,
  0xe3, 0x7b, 0xac, 0xbe, 0xb3, 0x50, 0x73, 0x3b, 0xc0, 0x95, 0x0d, 0x3d,
  0xea, 0x2f, 0x21, 0xbe, 0x3d, 0x32, 0x6f, 0xbe, 0xa4, 0xe6, 0x71, 0xbd,
  0x8c, 0xf7, 0xbd, 0xbe, 0xe6, 0x09, 0x4a, 0x3e, 0x4f, 0x5f, 0x62, 0x3e,
  0x49, 0xee, 0xb9, 0x3d, 0x34, 0x51, 0xbf, 0x3e, 0x58, 0x33, 0x1b, 0x3e,
  0xe4, 0xfb, 0x84, 0x3d, 0x75, 0x75, 0x80, 0x3e, 0xc3, 0x8c, 0xc0, 0x3d,
  0xec, 0x93, 0xe1, 0xbd, 0x8c, 0x3a, 0xaf, 0xbd, 0x1c, 0x9f, 0x97, 0x3e,
  0x17, 0x7d, 0xdd, 0x3e, 0x86, 0x6d, 0x57, 0xbe, 0xf1, 0x2d, 0x10, 0x3d,
  0xd7, 0xd8, 0xd0, 0x3e, 0x09, 0xaf, 0x7c, 0xbe, 0x86, 0x01, 0x40, 0x3e,
  0x41, 0xff, 0xf8, 0xbc, 0x3f, 0xd7, 0xd8, 0x3e, 0x75, 0xc4, 0xf8, 0x3d,
  0x42, 0xd2, 0x96, 0xbe, 0x05, 0x2e, 0xb0, 0x3e, 0x4f, 0x40, 0xa7, 0x3e,
  0x75, 0xc9, 0xf4, 0xbe, 0x27, 0x7b, 0x79, 0xbe, 0xd8, 0x1f, 0x00, 0xbe,
  0x1b, 0xb0, 0x16, 0xbe, 0x16, 0x8d, 0x12, 0xbe, 0x08, 0xf7, 0x4a, 0xbd,
  0xbf, 0xec, 0xf0, 0x3c, 0x32, 0x30, 0x6d, 0xbf, 0xf5, 0xda, 0xa9, 0x3e,
  0xb2, 0xc9, 0x41, 0xbe, 0xa3, 0xa7, 0x6d, 0x3e, 0xa9, 0xe9, 0x9e, 0x3d,
  0x94, 0xd8, 0xab, 0xbe, 0xfc, 0xba, 0xb2, 0xbf, 0xf2, 0x12, 0xa6, 0xbe,
  0x2e, 0x20, 0x39, 0x3e, 0x42, 0xf6, 0x23, 0x3f, 0x6e, 0xf1, 0x61, 0x3e,
  0xc0, 0x8d, 0x66, 0x3c, 0x84, 0x62, 0x62, 0x3e, 0xba, 0xfd, 0x7d, 0x3e,
  0x39, 0x45, 0x41, 0xbe, 0x11, 0x92, 0xa8, 0x3e, 0xba, 0x50, 0x19, 0x3e,
  0x10, 0xa3, 0xb0, 0x3c, 0x98, 0x8e, 0x4c, 0xbd, 0xba, 0x1d, 0x73, 0x3e,
  0x0d, 0x64, 0xba, 0xbe, 0xf0, 0x16, 0x84, 0xbd, 0xe3, 0xf0, 0xd6, 0xbe,
  0x16, 0x1a, 0x09, 0x3e, 0x7e, 0x8b, 0x2c, 0x3e, 0x10, 0xc9, 0x90, 0xbe,
  0x83, 0xa8, 0xb1, 0x3e, 0xc0, 0xc4, 0x1e, 0x3c, 0x7c, 0xc3, 0x8b, 0xbe,
  0x09, 0x33, 0x8d, 0x3e, 0xd4, 0xa5, 0x73, 0xbe, 0xcd, 0x1d, 0x5d, 0xbe,
  0x70, 0x76, 0x7a, 0xbe, 0x7a, 0xa2, 0xa1, 0xbe, 0x30, 0x9a, 0xb5, 0xbd,
  0xea, 0x21, 0x2f, 0xbe, 0x4e, 0xbd, 0xfb, 0x3c, 0xbb, 0x60, 0x03, 0xbe,
  0x45, 0x36, 0xa2, 0xbe, 0x2d, 0x63, 0xb6, 0x3e, 0xd8, 0x80, 0x09, 0xbe,
  0x88, 0x6b, 0x08, 0xbe, 0xe0, 0x0d, 0x85, 0xbe, 0x6e, 0xdd, 0x03, 0x3e,
  0x98, 0xdd, 0x27, 0xbd, 0xda, 0xd3, 0xab, 0xbe, 0x82, 0x9f, 0x3b, 0x3e,
  0x37, 0xe5, 0x0c, 0xbe, 0x38, 0x09, 0x56, 0x3d, 0x2b, 0x90, 0xc0, 0xbe,
  0x5e, 0x40, 0x3e, 0x3e, 0x84, 0xce, 0xae, 0x3d, 0x95, 0x02, 0x81, 0xbe,
  0x00, 0x7f, 0xd3, 0xbb, 0xd8, 0x54, 0x49, 0x3d, 0x90, 0x53, 0xd0, 0xbc,
  0x98, 0xad, 0x04, 0xbe, 0x94, 0x43, 0x57, 0xbe, 0x8b, 0xbb, 0xa8, 0x3e,
  0x3e, 0x1f, 0x0b, 0x3e, 0xe5, 0x9a, 0xc5, 0x3e, 0xcd, 0x0d, 0xc2, 0xbe,
  0x77, 0x34, 0xd8, 0x3e, 0x8c, 0xf0, 0x98, 0xbe, 0xbb, 0xe6, 0x84, 0x3e,
  0x64, 0x63, 0x28, 0xbe, 0xb0, 0x5f, 0xe1, 0xbd, 0x01, 0x5a, 0xa2, 0x3e,
  0x41, 0x47, 0x61, 0xbe, 0x70, 0x30, 0xaf, 0xbe, 0xbf, 0x2b, 0x3f, 0xbe,
  0x49, 0xb9, 0xcc, 0xbe, 0x3e, 0x3f, 0x65, 0x3e, 0x6e, 0x51, 0xa8, 0xbe,
  0xcb, 0x18, 0xa9, 0xbe, 0xb8, 0xc8, 0x46, 0x3d, 0x1e, 0x4c, 0x7d, 0x3e,
  0x8a, 0x23, 0x53, 0x3e, 0x28, 0xfe, 0xcf, 0xbd, 0xef, 0x45, 0xc5, 0xbe,
  0xd6, 0xc3, 0xbc, 0xbe, 0x0c, 0xda, 0x2d, 0xbe, 0xdd, 0xba, 0xa6, 0x3e,
  0x85, 0x3f, 0xb1, 0x3e, 0xa0, 0x22, 0xb1, 0x3d, 0x24, 0x3c, 0x99, 0xbc,
  0xe6, 0xc2, 0x6e, 0x3d, 0x8a, 0x49, 0x5f, 0x3e, 0x5a, 0xfb, 0x73, 0x3e,
  0xd6, 0x98, 0xc1, 0xbe, 0x3d, 0x4a, 0xc5, 0x3e, 0xb7, 0x4d, 0xb1, 0x3e,
  0x60, 0x9c, 0x86, 0x3d, 0x51, 0x7b, 0xc0, 0x3e, 0x91, 0xfb, 0xa5, 0x3e,
  0xb6, 0xaa, 0xd0, 0xbe, 0x7d, 0x25, 0xb4, 0xbe, 0xc4, 0x7f, 0xa6, 0xbd,
  0x69, 0x44, 0x68, 0xbe, 0x1c, 0x21, 0xeb, 0x3d, 0xd0, 0x7c, 0x98, 0xbe,
  0x00, 0x70, 0xa8, 0x38, 0xce, 0xf5, 0x04, 0x3e, 0xb5, 0x38, 0x98, 0xbe,
  0x48, 0x9f, 0x1e, 0xbd, 0xc0, 0xb3, 0xd4, 0xbc, 0xc9, 0x57, 0xcd, 0x3e,
  0xd4, 0xf9, 0xe0, 0x3d, 0x9d, 0x13, 0x5b, 0xbe, 0x80, 0x75, 0x82, 0xbb,
  0x54, 0x13, 0x22, 0xbe, 0x72, 0xb3, 0x94, 0xbe, 0x82, 0x64, 0x64, 0x3e,
  0x74, 0x82, 0x88, 0xbe, 0x50, 0x06, 0x51, 0x3d, 0x1d, 0x9f, 0x04, 0xbe,
  0x90, 0x24, 0x87, 0xbe, 0x2e, 0x60, 0xa2, 0x3e, 0xaa, 0x64, 0xbe, 0x3d,
  0x43, 0x82, 0x7a, 0xbe, 0x04, 0xa8, 0x85, 0xbe, 0x91, 0x46, 0x20, 0x3e,
  0x00, 0x73, 0x85, 0xba, 0x49, 0xc0, 0xab, 0xbe, 0x41, 0xa9, 0xb3, 0x3e,
  0x48, 0x99, 0xf5, 0xbd, 0xa0, 0xc7, 0xac, 0xbe, 0x47, 0xf9, 0x26, 0xbe,
  0x3e, 0x72, 0xc7, 0x3e, 0x84, 0xf0, 0x97, 0xbe, 0xd0, 0xa3, 0xb8, 0xbe,
  0xa3, 0x85, 0x2d, 0xbd, 0xa2, 0x5b, 0xd6, 0xbd, 0x0d, 0x14, 0xa7, 0x3e,
  0x22, 0x0c, 0xc7, 0xbe, 0x26, 0x95, 0x7e, 0x3e, 0x83, 0x1a, 0xab, 0x3e,
  0xbe, 0x51, 0x92, 0xbe, 0x1d, 0x66, 0x88, 0x3e, 0xbe, 0x09, 0x6e, 0xbe,
  0x41, 0x10, 0x27, 0xbe, 0xc2, 0xaa, 0x32, 0x3e, 0x7e, 0x31, 0x0a, 0xbe,
  0x75, 0x67, 0x2a, 0x3d, 0xc3, 0x87, 0x25, 0xbf, 0x44, 0xcf, 0xe2, 0x3d,
  0x0a, 0xff, 0xff, 0xff, 0x04, 0x00, 0x00, 0x00, 0x40, 0x00, 0x00, 0x00,
  0xe0, 0xdc, 0x86, 0xbc, 0x12, 0xb1, 0x8a, 0x3d, 0x0a, 0xf0, 0x3b, 0x3e,
  0x0f, 0xed, 0xf7, 0x3e, 0x0b, 0xe8, 0x92, 0x3e, 0xaf, 0x91, 0x0e, 0xbf,
  0x88, 0xb3, 0x46, 0xbe, 0x73, 0xc3, 0x8e, 0x3e, 0xe0, 0xae, 0x48, 0xbd,
  0xb8, 0xc3, 0x12, 0xbf, 0x0f, 0xcb, 0x27, 0x3e, 0x40, 0x6d, 0x6e, 0xbd,
  0x27, 0xf6, 0x8a, 0xbe, 0xb4, 0x59, 0xe9, 0xbc, 0x0c, 0x15, 0x14, 0x3e,
  0x80, 0x80, 0xfd, 0xbc, 0x56, 0xff, 0xff, 0xff, 0x04, 0x00, 0x00, 0x00,
  0x40, 0x00, 0x00, 0x00, 0x00, 0x00, 0x00, 0x00, 0x86, 0xe6, 0x23, 0xbd,
  0x7a, 0xd1, 0x19, 0xbd, 0xea, 0xf0, 0x1d, 0x3e, 0x2f, 0x98, 0x3e, 0xbc,
  0x07, 0x7b, 0x16, 0xbe, 0x88, 0xe0, 0xf4, 0x3e, 0xc2, 0xe9, 0x65, 0x3e,
  0x00, 0x00, 0x00, 0x00, 0x9c, 0xff, 0x26, 0xbb, 0x00, 0x00, 0x00, 0x00,
  0x00, 0x00, 0x00, 0x00, 0x90, 0x53, 0x29, 0xbd, 0x00, 0x00, 0x00, 0x00,
  0x9c, 0x37, 0x57, 0xbe, 0x5e, 0xd9, 0xdc, 0x3e, 0xa2, 0xff, 0xff, 0xff,
  0x04, 0x00, 0x00, 0x00, 0x40, 0x00, 0x00, 0x00, 0x31, 0xf4, 0x8f, 0x3e,
  0xd7, 0x66, 0x69, 0x3e, 0x36, 0x66, 0x75, 0x3e, 0x00, 0x00, 0x00, 0x00,
  0x75, 0x1c, 0x23, 0x3e, 0x1a, 0xb2, 0x9f, 0xbe, 0x9a, 0x32, 0x97, 0x3e,
  0xde, 0x2b, 0xfa, 0x3d, 0xe7, 0x21, 0x5f, 0x3e, 0x47, 0x75, 0x32, 0x3e,
  0x81, 0x7d, 0x95, 0xbc, 0x9c, 0x86, 0x67, 0x3e, 0xf3, 0xe9, 0x92, 0xbe,
  0xeb, 0x97, 0x84, 0xbe, 0xaa, 0xec, 0x8e, 0x3e, 0xe0, 0x0b, 0x80, 0x3e,
  0xee, 0xff, 0xff, 0xff, 0x04, 0x00, 0x00, 0x00, 0x04, 0x00, 0x00, 0x00,
  0xc5, 0xc0, 0xa2, 0xbe, 0x00, 0x00, 0x06, 0x00, 0x08, 0x00, 0x04, 0x00,
  0x06, 0x00, 0x00, 0x00, 0x04, 0x00, 0x00, 0x00, 0x40, 0x00, 0x00, 0x00,
  0x00, 0x00, 0x00, 0x00, 0x31, 0x0c, 0x7b, 0xbe, 0xd7, 0x65, 0xce, 0x3e,
  0x52, 0xa2, 0x24, 0xbb, 0x48, 0x24, 0x07, 0xbf, 0x00, 0x00, 0x00, 0x00,
  0x00, 0x00, 0x00, 0x00, 0x52, 0xeb, 0xe9, 0xbe, 0x00, 0x00, 0x00, 0x00,
  0x00, 0x00, 0x00, 0x00, 0x09, 0x96, 0x89, 0xbe, 0x00, 0x00, 0x00, 0x00,
  0x00, 0x00, 0x00, 0x00, 0x40, 0x52, 0xaf, 0x3d, 0x2e, 0x62, 0xd5, 0xbe,
  0x00, 0x00, 0x00, 0x00, 0xf4, 0xf9, 0xff, 0xff, 0xf8, 0xf9, 0xff, 0xff,
  0x0f, 0x00, 0x00, 0x00, 0x4d, 0x4c, 0x49, 0x52, 0x20, 0x43, 0x6f, 0x6e,
  0x76, 0x65, 0x72, 0x74, 0x65, 0x64, 0x2e, 0x00, 0x01, 0x00, 0x00, 0x00,
  0x14, 0x00, 0x00, 0x00, 0x00, 0x00, 0x0e, 0x00, 0x18, 0x00, 0x14, 0x00,
  0x10, 0x00, 0x0c, 0x00, 0x08, 0x00, 0x04, 0x00, 0x0e, 0x00, 0x00, 0x00,
  0x14, 0x00, 0x00, 0x00, 0x1c, 0x00, 0x00, 0x00, 0x10, 0x01, 0x00, 0x00,
  0x14, 0x01, 0x00, 0x00, 0x18, 0x01, 0x00, 0x00, 0x04, 0x00, 0x00, 0x00,
  0x6d, 0x61, 0x69, 0x6e, 0x00, 0x00, 0x00, 0x00, 0x04, 0x00, 0x00, 0x00,
  0xb8, 0x00, 0x00, 0x00, 0x70, 0x00, 0x00, 0x00, 0x38, 0x00, 0x00, 0x00,
  0x04, 0x00, 0x00, 0x00, 0x66, 0xff, 0xff, 0xff, 0x10, 0x00, 0x00, 0x00,
  0x00, 0x00, 0x00, 0x08, 0x0c, 0x00, 0x00, 0x00, 0x10, 0x00, 0x00, 0x00,
  0x74, 0xfa, 0xff, 0xff, 0x01, 0x00, 0x00, 0x00, 0x0c, 0x00, 0x00, 0x00,
  0x03, 0x00, 0x00, 0x00, 0x0b, 0x00, 0x00, 0x00, 0x08, 0x00, 0x00, 0x00,
  0x02, 0x00, 0x00, 0x00, 0x96, 0xff, 0xff, 0xff, 0x10, 0x00, 0x00, 0x00,
  0x00, 0x00, 0x00, 0x08, 0x10, 0x00, 0x00, 0x00, 0x14, 0x00, 0x00, 0x00,
  0x86, 0xff, 0xff, 0xff, 0x00, 0x00, 0x00, 0x01, 0x01, 0x00, 0x00, 0x00,
  0x0b, 0x00, 0x00, 0x00, 0x03, 0x00, 0x00, 0x00, 0x0a, 0x00, 0x00, 0x00,
  0x07, 0x00, 0x00, 0x00, 0x03, 0x00, 0x00, 0x00, 0xca, 0xff, 0xff, 0xff,
  0x10, 0x00, 0x00, 0x00, 0x00, 0x00, 0x00, 0x08, 0x10, 0x00, 0x00, 0x00,
  0x14, 0x00, 0x00, 0x00, 0xba, 0xff, 0xff, 0xff, 0x00, 0x00, 0x00, 0x01,
  0x01, 0x00, 0x00, 0x00, 0x0a, 0x00, 0x00, 0x00, 0x03, 0x00, 0x00, 0x00,
  0x09, 0x00, 0x00, 0x00, 0x06, 0x00, 0x00, 0x00, 0x04, 0x00, 0x00, 0x00,
  0x00, 0x00, 0x0e, 0x00, 0x16, 0x00, 0x00, 0x00, 0x10, 0x00, 0x0c, 0x00,
  0x0b, 0x00, 0x04, 0x00, 0x0e, 0x00, 0x00, 0x00, 0x18, 0x00, 0x00, 0x00,
  0x00, 0x00, 0x00, 0x08, 0x18, 0x00, 0x00, 0x00, 0x1c, 0x00, 0x00, 0x00,
  0x00, 0x00, 0x06, 0x00, 0x08, 0x00, 0x07, 0x00, 0x06, 0x00, 0x00, 0x00,
  0x00, 0x00, 0x00, 0x01, 0x01, 0x00, 0x00, 0x00, 0x09, 0x00, 0x00, 0x00,
  0x03, 0x00, 0x00, 0x00, 0x00, 0x00, 0x00, 0x00, 0x05, 0x00, 0x00, 0x00,
  0x01, 0x00, 0x00, 0x00, 0x01, 0x00, 0x00, 0x00, 0x0c, 0x00, 0x00, 0x00,
  0x01, 0x00, 0x00, 0x00, 0x00, 0x00, 0x00, 0x00, 0x0d, 0x00, 0x00, 0x00,
  0x84, 0x04, 0x00, 0x00, 0x20, 0x04, 0x00, 0x00, 0xbc, 0x03, 0x00, 0x00,
  0x68, 0x03, 0x00, 0x00, 0x14, 0x03, 0x00, 0x00, 0xd0, 0x02, 0x00, 0x00,
  0x88, 0x02, 0x00, 0x00, 0x40, 0x02, 0x00, 0x00, 0xf8, 0x01, 0x00, 0x00,
  0x74, 0x01, 0x00, 0x00, 0xe8, 0x00, 0x00, 0x00, 0x5c, 0x00, 0x00, 0x00,
  0x04, 0x00, 0x00, 0x00, 0xc4, 0xfb, 0xff, 0xff, 0x14, 0x00, 0x00, 0x00,
  0x1c, 0x00, 0x00, 0x00, 0x1c, 0x00, 0x00, 0x00, 0x0d, 0x00, 0x00, 0x00,
  0x34, 0x00, 0x00, 0x00, 0x02, 0x00, 0x00, 0x00, 0xff, 0xff, 0xff, 0xff,
  0x01, 0x00, 0x00, 0x00, 0xb0, 0xfb, 0xff, 0xff, 0x19, 0x00, 0x00, 0x00,
  0x53, 0x74, 0x61, 0x74, 0x65, 0x66, 0x75, 0x6c, 0x50, 0x61, 0x72, 0x74,
  0x69, 0x74, 0x69, 0x6f, 0x6e, 0x65, 0x64, 0x43, 0x61, 0x6c, 0x6c, 0x3a,
  0x30, 0x00, 0x00, 0x00, 0x02, 0x00, 0x00, 0x00, 0x01, 0x00, 0x00, 0x00,
  0x01, 0x00, 0x00, 0x00, 0x18, 0xfc, 0xff, 0xff, 0x14, 0x00, 0x00, 0x00,
  0x1c, 0x00, 0x00, 0x00, 0x1c, 0x00, 0x00, 0x00, 0x0c, 0x00, 0x00, 0x00,
  0x68, 0x00, 0x00, 0x00, 0x02, 0x00, 0x00, 0x00, 0xff, 0xff, 0xff, 0xff,
  0x10, 0x00, 0x00, 0x00, 0x04, 0xfc, 0xff, 0xff, 0x4c, 0x00, 0x00, 0x00,
  0x73, 0x65, 0x71, 0x75, 0x65, 0x6e, 0x74, 0x69, 0x61, 0x6c, 0x2f, 0x64,
  0x65, 0x6e, 0x73, 0x65, 0x5f, 0x32, 0x2f, 0x4d, 0x61, 0x74, 0x4d, 0x75,
  0x6c, 0x3b, 0x73, 0x65, 0x71, 0x75, 0x65, 0x6e, 0x74, 0x69, 0x61, 0x6c,
  0x2f, 0x64, 0x65, 0x6e, 0x73, 0x65, 0x5f, 0x32, 0x2f, 0x52, 0x65, 0x6c,
  0x75, 0x3b, 0x73, 0x65, 0x71, 0x75, 0x65, 0x6e, 0x74, 0x69, 0x61, 0x6c,
  0x2f, 0x64, 0x65, 0x6e, 0x73, 0x65, 0x5f, 0x32, 0x2f, 0x42, 0x69, 0x61,
  0x73, 0x41, 0x64, 0x64, 0x00, 0x00, 0x00, 0x00, 0x02, 0x00, 0x00, 0x00,
  0x01, 0x00, 0x00, 0x00, 0x10, 0x00, 0x00, 0x00, 0xa0, 0xfc, 0xff, 0xff,
  0x14, 0x00, 0x00, 0x00, 0x1c, 0x00, 0x00, 0x00, 0x1c, 0x00, 0x00, 0x00,
  0x0b, 0x00, 0x00, 0x00, 0x68, 0x00, 0x00, 0x00, 0x02, 0x00, 0x00, 0x00,
  0xff, 0xff, 0xff, 0xff, 0x10, 0x00, 0x00, 0x00, 0x8c, 0xfc, 0xff, 0xff,
  0x4c, 0x00, 0x00, 0x00, 0x73, 0x65, 0x71, 0x75, 0x65, 0x6e, 0x74, 0x69,
  0x61, 0x6c, 0x2f, 0x64, 0x65, 0x6e, 0x73, 0x65, 0x5f, 0x31, 0x2f, 0x4d,
  0x61, 0x74, 0x4d, 0x75, 0x6c, 0x3b, 0x73, 0x65, 0x71, 0x75, 0x65, 0x6e,
  0x74, 0x69, 0x61, 0x6c, 0x2f, 0x64, 0x65, 0x6e, 0x73, 0x65, 0x5f, 0x31,
  0x2f, 0x52, 0x65, 0x6c, 0x75, 0x3b, 0x73, 0x65, 0x71, 0x75, 0x65, 0x6e,
  0x74, 0x69, 0x61, 0x6c, 0x2f, 0x64, 0x65, 0x6e, 0x73, 0x65, 0x5f, 0x31,
  0x2f, 0x42, 0x69, 0x61, 0x73, 0x41, 0x64, 0x64, 0x00, 0x00, 0x00, 0x00,
  0x02, 0x00, 0x00, 0x00, 0x01, 0x00, 0x00, 0x00, 0x10, 0x00, 0x00, 0x00,
  0x28, 0xfd, 0xff, 0xff, 0x14, 0x00, 0x00, 0x00, 0x1c, 0x00, 0x00, 0x00,
  0x1c, 0x00, 0x00, 0x00, 0x0a, 0x00, 0x00, 0x00, 0x60, 0x00, 0x00, 0x00,
  0x02, 0x00, 0x00, 0x00, 0xff, 0xff, 0xff, 0xff, 0x10, 0x00, 0x00, 0x00,
  0x14, 0xfd, 0xff, 0xff, 0x46, 0x00, 0x00, 0x00, 0x73, 0x65, 0x71, 0x75,
  0x65, 0x6e, 0x74, 0x69, 0x61, 0x6c, 0x2f, 0x64, 0x65, 0x6e, 0x73, 0x65,
  0x2f, 0x4d, 0x61, 0x74, 0x4d, 0x75, 0x6c, 0x3b, 0x73, 0x65, 0x71, 0x75,
  0x65, 0x6e, 0x74, 0x69, 0x61, 0x6c, 0x2f, 0x64, 0x65, 0x6e, 0x73, 0x65,
  0x2f, 0x52, 0x65, 0x6c, 0x75, 0x3b, 0x73, 0x65, 0x71, 0x75, 0x65, 0x6e,
  0x74, 0x69, 0x61, 0x6c, 0x2f, 0x64, 0x65, 0x6e, 0x73, 0x65, 0x2f, 0x42,
  0x69, 0x61, 0x73, 0x41, 0x64, 0x64, 0x00, 0x00, 0x02, 0x00, 0x00, 0x00,
  0x01, 0x00, 0x00, 0x00, 0x10, 0x00, 0x00, 0x00, 0x02, 0xfe, 0xff, 0xff,
  0x10, 0x00, 0x00, 0x00, 0x10, 0x00, 0x00, 0x00, 0x09, 0x00, 0x00, 0x00,
  0x28, 0x00, 0x00, 0x00, 0x84, 0xfd, 0xff, 0xff, 0x19, 0x00, 0x00, 0x00,
  0x73, 0x65, 0x71, 0x75, 0x65, 0x6e, 0x74, 0x69, 0x61, 0x6c, 0x2f, 0x64,
  0x65, 0x6e, 0x73, 0x65, 0x5f, 0x33, 0x2f, 0x4d, 0x61, 0x74, 0x4d, 0x75,
  0x6c, 0x00, 0x00, 0x00, 0x02, 0x00, 0x00, 0x00, 0x01, 0x00, 0x00, 0x00,
  0x10, 0x00, 0x00, 0x00, 0x46, 0xfe, 0xff, 0xff, 0x10, 0x00, 0x00, 0x00,
  0x10, 0x00, 0x00, 0x00, 0x08, 0x00, 0x00, 0x00, 0x28, 0x00, 0x00, 0x00,
  0xc8, 0xfd, 0xff, 0xff, 0x19, 0x00, 0x00, 0x00, 0x73, 0x65, 0x71, 0x75,
  0x65, 0x6e, 0x74, 0x69, 0x61, 0x6c, 0x2f, 0x64, 0x65, 0x6e, 0x73, 0x65,
  0x5f, 0x32, 0x2f, 0x4d, 0x61, 0x74, 0x4d, 0x75, 0x6c, 0x00, 0x00, 0x00,
  0x02, 0x00, 0x00, 0x00, 0x10, 0x00, 0x00, 0x00, 0x10, 0x00, 0x00, 0x00,
  0x8a, 0xfe, 0xff, 0xff, 0x10, 0x00, 0x00, 0x00, 0x10, 0x00, 0x00, 0x00,
  0x07, 0x00, 0x00, 0x00, 0x28, 0x00, 0x00, 0x00, 0x0c, 0xfe, 0xff, 0xff,
  0x19, 0x00, 0x00, 0x00, 0x73, 0x65, 0x71, 0x75, 0x65, 0x6e, 0x74, 0x69,
  0x61, 0x6c, 0x2f, 0x64, 0x65, 0x6e, 0x73, 0x65, 0x5f, 0x31, 0x2f, 0x4d,
  0x61, 0x74, 0x4d, 0x75, 0x6c, 0x00, 0x00, 0x00, 0x02, 0x00, 0x00, 0x00,
  0x10, 0x00, 0x00, 0x00, 0x10, 0x00, 0x00, 0x00, 0xce, 0xfe, 0xff, 0xff,
  0x10, 0x00, 0x00, 0x00, 0x10, 0x00, 0x00, 0x00, 0x06, 0x00, 0x00, 0x00,
  0x24, 0x00, 0x00, 0x00, 0x50, 0xfe, 0xff, 0xff, 0x17, 0x00, 0x00, 0x00,
  0x73, 0x65, 0x71, 0x75, 0x65, 0x6e, 0x74, 0x69, 0x61, 0x6c, 0x2f, 0x64,
  0x65, 0x6e, 0x73, 0x65, 0x2f, 0x4d, 0x61, 0x74, 0x4d, 0x75, 0x6c, 0x00,
  0x02, 0x00, 0x00, 0x00, 0x10, 0x00, 0x00, 0x00, 0x01, 0x00, 0x00, 0x00,
  0x0e, 0xff, 0xff, 0xff, 0x10, 0x00, 0x00, 0x00, 0x10, 0x00, 0x00, 0x00,
  0x05, 0x00, 0x00, 0x00, 0x38, 0x00, 0x00, 0x00, 0x90, 0xfe, 0xff, 0xff,
  0x29, 0x00, 0x00, 0x00, 0x73, 0x65, 0x71, 0x75, 0x65, 0x6e, 0x74, 0x69,
  0x61, 0x6c, 0x2f, 0x64, 0x65, 0x6e, 0x73, 0x65, 0x5f, 0x31, 0x2f, 0x42,
  0x69, 0x61, 0x73, 0x41, 0x64, 0x64, 0x2f, 0x52, 0x65, 0x61, 0x64, 0x56,
  0x61, 0x72, 0x69, 0x61, 0x62, 0x6c, 0x65, 0x4f, 0x70, 0x00, 0x00, 0x00,
  0x01, 0x00, 0x00, 0x00, 0x10, 0x00, 0x00, 0x00, 0x5e, 0xff, 0xff, 0xff,
  0x10, 0x00, 0x00, 0x00, 0x10, 0x00, 0x00, 0x00, 0x04, 0x00, 0x00, 0x00,
  0x38, 0x00, 0x00, 0x00, 0xe0, 0xfe, 0xff, 0xff, 0x29, 0x00, 0x00, 0x00,
  0x73, 0x65, 0x71, 0x75, 0x65, 0x6e, 0x74, 0x69, 0x61, 0x6c, 0x2f, 0x64,
  0x65, 0x6e, 0x73, 0x65, 0x5f, 0x32, 0x2f, 0x42, 0x69, 0x61, 0x73, 0x41,
  0x64, 0x64, 0x2f, 0x52, 0x65, 0x61, 0x64, 0x56, 0x61, 0x72, 0x69, 0x61,
  0x62, 0x6c, 0x65, 0x4f, 0x70, 0x00, 0x00, 0x00, 0x01, 0x00, 0x00, 0x00,
  0x10, 0x00, 0x00, 0x00, 0xae, 0xff, 0xff, 0xff, 0x10, 0x00, 0x00, 0x00,
  0x10, 0x00, 0x00, 0x00, 0x03, 0x00, 0x00, 0x00, 0x38, 0x00, 0x00, 0x00,
  0x30, 0xff, 0xff, 0xff, 0x29, 0x00, 0x00, 0x00, 0x73, 0x65, 0x71, 0x75,
  0x65, 0x6e, 0x74, 0x69, 0x61, 0x6c, 0x2f, 0x64, 0x65, 0x6e, 0x73, 0x65,
  0x5f, 0x33, 0x2f, 0x42, 0x69, 0x61, 0x73, 0x41, 0x64, 0x64, 0x2f, 0x52,
  0x65, 0x61, 0x64, 0x56, 0x61, 0x72, 0x69, 0x61, 0x62, 0x6c, 0x65, 0x4f,
  0x70, 0x00, 0x00, 0x00, 0x01, 0x00, 0x00, 0x00, 0x01, 0x00, 0x00, 0x00,
  0x00, 0x00, 0x0e, 0x00, 0x14, 0x00, 0x10, 0x00, 0x00, 0x00, 0x0c, 0x00,
  0x08, 0x00, 0x04, 0x00, 0x0e, 0x00, 0x00, 0x00, 0x10, 0x00, 0x00, 0x00,
  0x10, 0x00, 0x00, 0x00, 0x02, 0x00, 0x00, 0x00, 0x34, 0x00, 0x00, 0x00,
  0x90, 0xff, 0xff, 0xff, 0x27, 0x00, 0x00, 0x00, 0x73, 0x65, 0x71, 0x75,
  0x65, 0x6e, 0x74, 0x69, 0x61, 0x6c, 0x2f, 0x64, 0x65, 0x6e, 0x73, 0x65,
  0x2f, 0x42, 0x69, 0x61, 0x73, 0x41, 0x64, 0x64, 0x2f, 0x52, 0x65, 0x61,
  0x64, 0x56, 0x61, 0x72, 0x69, 0x61, 0x62, 0x6c, 0x65, 0x4f, 0x70, 0x00,
  0x01, 0x00, 0x00, 0x00, 0x10, 0x00, 0x00, 0x00, 0x14, 0x00, 0x18, 0x00,
  0x14, 0x00, 0x00, 0x00, 0x10, 0x00, 0x0c, 0x00, 0x08, 0x00, 0x00, 0x00,
  0x00, 0x00, 0x04, 0x00, 0x14, 0x00, 0x00, 0x00, 0x14, 0x00, 0x00, 0x00,
  0x20, 0x00, 0x00, 0x00, 0x20, 0x00, 0x00, 0x00, 0x01, 0x00, 0x00, 0x00,
  0x3c, 0x00, 0x00, 0x00, 0x02, 0x00, 0x00, 0x00, 0xff, 0xff, 0xff, 0xff,
  0x01, 0x00, 0x00, 0x00, 0x04, 0x00, 0x04, 0x00, 0x04, 0x00, 0x00, 0x00,
  0x1d, 0x00, 0x00, 0x00, 0x73, 0x65, 0x72, 0x76, 0x69, 0x6e, 0x67, 0x5f,
  0x64, 0x65, 0x66, 0x61, 0x75, 0x6c, 0x74, 0x5f, 0x64, 0x65, 0x6e, 0x73,
  0x65, 0x5f, 0x69, 0x6e, 0x70, 0x75, 0x74, 0x3a, 0x30, 0x00, 0x00, 0x00,
  0x02, 0x00, 0x00, 0x00, 0x01, 0x00, 0x00, 0x00, 0x01, 0x00, 0x00, 0x00,
  0x01, 0x00, 0x00, 0x00, 0x10, 0x00, 0x00, 0x00, 0x0c, 0x00, 0x0c, 0x00,
  0x0b, 0x00, 0x00, 0x00, 0x00, 0x00, 0x04, 0x00, 0x0c, 0x00, 0x00, 0x00,
  0x09, 0x00, 0x00, 0x00, 0x00, 0x00, 0x00, 0x09
};
unsigned int sine_model_tflite_len = 4592;
